TRT-101303-MinMaxCalibration
ONNXTRT_Broadcast_645_output: 3b5bf6a3
/encoder/layer.7/attention/attn/v/MatMul_output_0: 3c99b5bc
/Cast_output_0: 3c010204
/Constant_2_output_0_output: 3c010204
ONNXTRT_Broadcast_output: 3c010204
/Sub_output_0: 0
/Constant_3_output_0_output: 7c010204
ONNXTRT_Broadcast_1_output: 7c010204
/Mul_output_0: 0
/embeddings/word_embeddings/Gather_output_0: 3bcb9396
/embeddings/position_embeddings/Gather_output_0: 3ce183cf
/embeddings/Add_1_output_0: 3cea15ed
last_hidden_state: 3bc633ee
/embeddings/LayerNorm/LayerNormalization_output_0: 3c6d3fdd
onnx::MatMul_1472_output: 3b4eb613
/encoder/layer.11/attention/attn/MatMul_1_output_0: 3c1fea2f
encoder.layer.7.attention.attn.o.bias_output: 3b09591b
onnx::MatMul_1470_output: 3b2e2145
ONNXTRT_Broadcast_453_output: 3bc6d5da
onnx::MatMul_1523_output: 3bcf95f7
/encoder/layer.7/intermediate/intermediate_act_fn/Add_output_0: 3c810204
ONNXTRT_Broadcast_624_output: 3bcf95f7
onnx::MatMul_1491_output: 3be3ed1f
ONNXTRT_Broadcast_508_output: 3c010204
/encoder/layer.8/attention/attn/v/Add_output_0: 3caf6d12
/encoder/layer.8/attention/attn/k/MatMul_output_0: 3d898b45
ONNXTRT_Broadcast_481_output: 3b1b3eae
/encoder/layer.9/attention/attn/q/MatMul_output_0: 3d2d600b
/encoder/layer.11/attention/attn/Reshape_output_0: 3d2a6c3f
onnx::MatMul_1474_output: 3d8a6419
ONNXTRT_Broadcast_441_output: 3b4eb613
/encoder/Cast_2_output_0: 3f800000
/encoder/Constant_10_output_0_output: 3d810204
ONNXTRT_Broadcast_30_output: 3d810204
/encoder/Div_output_0: 3e000000
/encoder/Log_output_0: 7f800000
/encoder/Constant_11_output_0_output: 3cb2d7c8
ONNXTRT_Broadcast_32_output: 3cb2d7c8
/encoder/Div_1_output_0: 7f800000
/encoder/Constant_12_output_0_output: 3d810204
ONNXTRT_Broadcast_34_output: 3d810204
/encoder/Mul_1_output_0: 7f800000
/encoder/layer.9/attention/LayerNorm/LayerNormalization_output_0: 3ed2a220
/encoder/layer.7/output/dense/MatMul_output_0: 40b57490
/encoder/relative_attention_bias/Gather_output_0: 3db5bb14
/encoder/Transpose_output_0: 3db5bb14
/encoder/layer.8/intermediate/intermediate_act_fn/Mul_1_output_0: 3f146d5f
/encoder/Unsqueeze_2_output_0: 3db5bb14
/encoder/layer.8/attention/attn/o/Add_output_0: 3c34e1d6
/encoder/layer.11/attention/attn/Transpose_output_0: 3d2a6c3f
ONNXTRT_Broadcast_514_output: 3ba052b8
/encoder/layer.9/attention/attn/Reshape_output_0: 3d59f432
/encoder/layer.9/attention/attn/Transpose_output_0: 3d59f432
onnx::MatMul_1475_output: 3bc60719
onnx::MatMul_1501_output: 3c0336f7
/encoder/layer.7/attention/attn/MatMul_1_output_0: 3c217862
ONNXTRT_Broadcast_486_output: 3d810204
/encoder/layer.8/attention/attn/k/Add_output_0: 3d7f165d
/encoder/layer.9/attention/attn/k/MatMul_output_0: 3d6f0813
encoder.layer.9.attention.attn.k.bias_output: 3d7c6de6
ONNXTRT_Broadcast_529_output: 3d7c6de6
/encoder/layer.7/intermediate/intermediate_act_fn/Constant_2_output_0_output: 3b810204
/encoder/layer.9/attention/attn/Reshape_1_output_0: 3db0edb9
/encoder/layer.8/intermediate/dense/Add_output_0: 3f146d5f
/encoder/layer.9/attention/attn/Transpose_3_output_0: 3c094c6e
ONNXTRT_Broadcast_532_output: 3b08e989
/encoder/layer.9/attention/attn/v/MatMul_output_0: 3c915845
ONNXTRT_Broadcast_506_output: 3c3671d7
encoder.layer.9.attention.attn.v.bias_output: 3b03846d
ONNXTRT_Broadcast_534_output: 3b03846d
/encoder/layer.8/attention/attn/Reshape_3_output_0: 3c10f076
/encoder/layer.9/attention/attn/Reshape_2_output_0: 3c92f34c
/encoder/layer.9/attention/attn/Transpose_2_output_0: 3db0edb9
/encoder/layer.8/attention/Add_output_0: 3cb922cc
/encoder/layer.9/attention/attn/MatMul_output_0: 3fe54d46
/encoder/layer.9/attention/attn/Constant_10_output_0_output: 3d810204
/encoder/Expand_output_0: 3db5bb14
onnx::MatMul_1347_output: 3c0bbcf8
ONNXTRT_Broadcast_63_output: 3c0bbcf8
/encoder/layer.0/attention/attn/q/MatMul_output_0: 3d2f3527
encoder.layer.0.attention.attn.q.bias_output: 3c213ccd
ONNXTRT_Broadcast_65_output: 3c213ccd
/encoder/layer.0/attention/attn/q/Add_output_0: 3d22fdcd
/encoder/layer.11/attention/attn/Softmax_output: 3c009344
/encoder/layer.7/attention/attn/k/Add_output_0: 3d73685a
/encoder/layer.8/output/Add_output_0: 40f9576a
ONNXTRT_Broadcast_524_output: 3c3d6723
/encoder/layer.7/output/dense/Add_output_0: 40b57bb1
ONNXTRT_Broadcast_427_output: 3c9e0497
ONNXTRT_Broadcast_594_output: 3b1d9e37
/encoder/layer.8/output/LayerNorm/LayerNormalization_output_0: 3cff3a7a
/encoder/layer.11/attention/attn/Transpose_3_output_0: 3c1fea2f
/encoder/layer.10/attention/attn/Reshape_3_output_0: 3c24a435
encoder.layer.8.attention.attn.q.bias_output: 3c349c31
/encoder/layer.7/attention/attn/k/MatMul_output_0: 3d5ef754
encoder.layer.9.attention.attn.q.bias_output: 3c3d6723
/encoder/layer.8/attention/attn/Softmax_output_0: 3c00f6c9
encoder.layer.10.attention.attn.o.bias_output: 3b60dbf2
ONNXTRT_Broadcast_522_output: 3be3ed1f
/encoder/layer.9/attention/attn/q/Add_output_0: 3d59f432
/encoder/layer.0/attention/attn/Reshape_output_0: 3d22fdcd
/encoder/layer.0/attention/attn/Transpose_output_0: 3d22fdcd
onnx::MatMul_1357_output: 3c1ee13a
ONNXTRT_Broadcast_68_output: 3c1ee13a
/encoder/layer.0/attention/attn/k/MatMul_output_0: 3d9bd403
encoder.layer.0.attention.attn.k.bias_output: 38ac556a
ONNXTRT_Broadcast_70_output: 38ac556a
/encoder/layer.0/attention/attn/k/Add_output_0: 3d9bd439
/encoder/layer.0/attention/attn/Reshape_1_output_0: 3d9bd439
onnx::MatMul_1358_output: 3b918611
ONNXTRT_Broadcast_73_output: 3b918611
/encoder/layer.0/attention/attn/v/MatMul_output_0: 3ca340b8
encoder.layer.0.attention.attn.v.bias_output: 3b1c5c8d
ONNXTRT_Broadcast_75_output: 3b1c5c8d
/encoder/layer.0/attention/attn/v/Add_output_0: 3ca72d18
/encoder/layer.0/attention/attn/Reshape_2_output_0: 3ca72d18
/encoder/layer.0/attention/attn/Transpose_1_output_0: 3ca72d18
/encoder/layer.0/attention/attn/Transpose_2_output_0: 3d9bd439
/encoder/layer.0/attention/attn/MatMul_output_0: 3f233096
/encoder/layer.0/attention/attn/Constant_9_output_0_output: 3d810204
ONNXTRT_Broadcast_78_output: 3d810204
/encoder/layer.0/attention/attn/Div_output_0: 3da33096
/encoder/layer.0/attention/attn/Add_output_0: 3df6c6cd
/encoder/layer.0/attention/attn/Add_1_output_0: 3df6c6cd
/encoder/layer.0/attention/attn/Softmax_output: 3c005fb2
/encoder/layer.0/attention/attn/Softmax_output_0: 3c005fb2
ONNXTRT_Broadcast_537_output: 3d810204
/encoder/layer.7/intermediate/dense/MatMul_output_0: 3f18a2e9
/encoder/layer.0/attention/attn/MatMul_1_output_0: 3c3a1e76
/encoder/layer.0/attention/attn/Transpose_3_output_0: 3c3a1e76
/encoder/layer.9/attention/attn/Softmax_output: 3c00ff67
/encoder/layer.9/attention/attn/Softmax_output_0: 3c00ff67
/encoder/layer.9/attention/attn/Add_1_output_0: 3e550021
/encoder/layer.8/output/dense/Add_output_0: 40f92d2b
/encoder/layer.9/attention/attn/MatMul_1_output_0: 3c094c6e
ONNXTRT_Broadcast_565_output: 3b6cf8ef
ONNXTRT_Broadcast_510_output: 3b810204
/encoder/layer.9/output/Add_output_0: 41024cb9
/encoder/layer.9/attention/attn/Div_output_0: 3e654d46
/encoder/layer.10/attention/attn/Reshape_2_output_0: 3ca3ac6e
ONNXTRT_Broadcast_504_output: 3ba5a710
/encoder/layer.9/attention/attn/Add_output_0: 3e550021
encoder.layer.11.attention.attn.o.bias_output: 3b497216
/encoder/layer.0/attention/attn/Reshape_3_output_0: 3c3a1e76
onnx::MatMul_1360_output: 3bd810e7
ONNXTRT_Broadcast_84_output: 3bd810e7
/encoder/layer.0/attention/attn/o/MatMul_output_0: 3c570c6b
encoder.layer.0.attention.attn.o.bias_output: 3afa2668
ONNXTRT_Broadcast_86_output: 3afa2668
/encoder/layer.0/attention/attn/o/Add_output_0: 3c5f8e8a
/encoder/layer.0/attention/Add_output_0: 3c805521
/encoder/layer.0/attention/LayerNorm/LayerNormalization_output_0: 3da90fff
onnx::MatMul_1361_output: 3c2c3e99
ONNXTRT_Broadcast_94_output: 3c2c3e99
/encoder/layer.0/intermediate/dense/MatMul_output_0: 3e31fdd1
encoder.layer.0.intermediate.dense.bias_output: 3b5fbbf6
ONNXTRT_Broadcast_96_output: 3b5fbbf6
/encoder/layer.0/intermediate/dense/Add_output_0: 3e2f4da8
/encoder/layer.0/intermediate/intermediate_act_fn/Constant_output_0_output: 3c3671d7
ONNXTRT_Broadcast_98_output: 3c3671d7
/encoder/layer.0/intermediate/intermediate_act_fn/Div_output_0: 3df7ea98
/encoder/layer.0/intermediate/intermediate_act_fn/Erf_output_0: 3c010204
/encoder/layer.0/intermediate/intermediate_act_fn/Constant_1_output_0_output: 3c010204
ONNXTRT_Broadcast_100_output: 3c010204
/encoder/layer.0/intermediate/intermediate_act_fn/Add_output_0: 3c810204
/encoder/layer.0/intermediate/intermediate_act_fn/Mul_output_0: 3eaf4da8
/encoder/layer.0/intermediate/intermediate_act_fn/Constant_2_output_0_output: 3b810204
ONNXTRT_Broadcast_102_output: 3b810204
/encoder/layer.0/intermediate/intermediate_act_fn/Mul_1_output_0: 3e2f4da8
onnx::MatMul_1362_output: 3d941049
ONNXTRT_Broadcast_104_output: 3d941049
/encoder/layer.0/output/dense/MatMul_output_0: 3fc8c1e5
encoder.layer.0.output.dense.bias_output: 3c80c72b
ONNXTRT_Broadcast_106_output: 3c80c72b
/encoder/layer.0/output/dense/Add_output_0: 3fc8a1e5
/encoder/layer.0/output/Add_output_0: 3fd332e5
ONNXTRT_Broadcast_461_output: 3d8a6419
/encoder/layer.0/output/LayerNorm/LayerNormalization_output_0: 3daaaf8c
/encoder/layer.10/attention/attn/Transpose_2_output_0: 3da91829
/encoder/layer.8/attention/attn/Reshape_output_0: 3d66d6a7
/encoder/layer.7/attention/attn/v/Add_output_0: 3c9a8ffd
onnx::MatMul_1363_output: 3bddd0c1
ONNXTRT_Broadcast_114_output: 3bddd0c1
/encoder/layer.1/attention/attn/q/MatMul_output_0: 3d38f8d0
encoder.layer.1.attention.attn.q.bias_output: 3c1a4562
ONNXTRT_Broadcast_116_output: 3c1a4562
/encoder/layer.1/attention/attn/q/Add_output_0: 3d4f261a
/encoder/layer.8/intermediate/intermediate_act_fn/Constant_2_output_0_output: 3b810204
ONNXTRT_Broadcast_629_output: 3c17797f
/encoder/layer.7/attention/attn/Add_output_0: 3e1f9f00
/encoder/layer.8/attention/attn/Add_output_0: 3dee4d00
/encoder/layer.11/attention/attn/k/MatMul_output_0: 3d5546af
/encoder/layer.8/intermediate/intermediate_act_fn/Add_output_0: 3c810204
/encoder/layer.8/attention/attn/Div_output_0: 3dd328d0
/encoder/layer.8/attention/attn/Softmax_output: 3c00f6c9
encoder.layer.8.attention.attn.k.bias_output: 3d0346a1
/encoder/layer.9/attention/Add_output_0: 3d0f51ff
/encoder/layer.7/attention/attn/Transpose_3_output_0: 3c217862
ONNXTRT_Broadcast_473_output: 3c349c31
ONNXTRT_Broadcast_492_output: 3b2f0694
/encoder/layer.8/attention/attn/o/MatMul_output_0: 3c37bae6
onnx::MatMul_1533_output: 3c17797f
/encoder/layer.1/attention/attn/Reshape_output_0: 3d4f261a
/encoder/layer.1/attention/attn/Transpose_output_0: 3d4f261a
onnx::MatMul_1373_output: 3beed22a
ONNXTRT_Broadcast_119_output: 3beed22a
/encoder/layer.1/attention/attn/k/MatMul_output_0: 3d898b22
encoder.layer.1.attention.attn.k.bias_output: 38acd75a
ONNXTRT_Broadcast_121_output: 38acd75a
/encoder/layer.1/attention/attn/k/Add_output_0: 3d898879
/encoder/layer.1/attention/attn/Reshape_1_output_0: 3d898879
onnx::MatMul_1374_output: 3b851141
ONNXTRT_Broadcast_124_output: 3b851141
/encoder/layer.1/attention/attn/v/MatMul_output_0: 3cd6b84a
encoder.layer.1.attention.attn.v.bias_output: 3b18c147
ONNXTRT_Broadcast_126_output: 3b18c147
/encoder/layer.1/attention/attn/v/Add_output_0: 3cd5c127
/encoder/layer.1/attention/attn/Reshape_2_output_0: 3cd5c127
/encoder/layer.1/attention/attn/Transpose_1_output_0: 3cd5c127
/encoder/layer.1/attention/attn/Transpose_2_output_0: 3d898879
/encoder/layer.1/attention/attn/MatMul_output_0: 3f2c3a3c
/encoder/layer.1/attention/attn/Constant_10_output_0_output: 3d810204
ONNXTRT_Broadcast_129_output: 3d810204
/encoder/layer.1/attention/attn/Div_output_0: 3dac3a3c
/encoder/layer.1/attention/attn/Add_output_0: 3e17ceab
/encoder/layer.1/attention/attn/Add_1_output_0: 3e17ceab
/encoder/layer.1/attention/attn/Softmax_output: 3c00b83e
/encoder/layer.1/attention/attn/Softmax_output_0: 3c00b83e
ONNXTRT_Broadcast_631_output: 3caa114c
onnx::MatMul_1504_output: 3b1a49fc
/encoder/layer.1/attention/attn/MatMul_1_output_0: 3c195b67
/encoder/layer.1/attention/attn/Transpose_3_output_0: 3c195b67
ONNXTRT_Broadcast_545_output: 3b0d0dcf
/encoder/layer.9/attention/attn/o/Add_output_0: 3c0fe428
/encoder/layer.7/attention/LayerNorm/LayerNormalization_output_0: 3e9a23e4
onnx::MatMul_1490_output: 3d6d75e5
/encoder/layer.11/attention/attn/o/Add_output_0: 3c35810e
encoder.layer.11.attention.attn.q.bias_output: 3c0efbd6
onnx::MatMul_1537_output: 3c049357
ONNXTRT_Broadcast_455_output: 3c3671d7
/encoder/layer.11/attention/Add_output_0: 3d33c4fd
ONNXTRT_Broadcast_543_output: 3b1a49fc
/encoder/layer.9/attention/attn/o/MatMul_output_0: 3c046bea
onnx::MatMul_1505_output: 3ca9823b
/encoder/layer.1/attention/attn/Reshape_3_output_0: 3c195b67
onnx::MatMul_1376_output: 3c02c8c8
ONNXTRT_Broadcast_135_output: 3c02c8c8
/encoder/layer.1/attention/attn/o/MatMul_output_0: 3c3dc1e5
encoder.layer.1.attention.attn.o.bias_output: 3aa4ce48
ONNXTRT_Broadcast_137_output: 3aa4ce48
/encoder/layer.1/attention/attn/o/Add_output_0: 3c3470ea
/encoder/layer.1/attention/Add_output_0: 3dab7972
/encoder/layer.10/intermediate/intermediate_act_fn/Mul_1_output_0: 3eea1174
/encoder/layer.11/output/Add_output_0: 3dc37305
/encoder/layer.1/attention/LayerNorm/LayerNormalization_output_0: 3ea6c388
onnx::MatMul_1377_output: 3c167fab
ONNXTRT_Broadcast_145_output: 3c167fab
/encoder/layer.1/intermediate/dense/MatMul_output_0: 3e8f467f
encoder.layer.1.intermediate.dense.bias_output: 3b843810
ONNXTRT_Broadcast_147_output: 3b843810
/encoder/layer.1/intermediate/dense/Add_output_0: 3e8f0e07
/encoder/layer.1/intermediate/intermediate_act_fn/Constant_output_0_output: 3c3671d7
ONNXTRT_Broadcast_149_output: 3c3671d7
/encoder/layer.1/intermediate/intermediate_act_fn/Div_output_0: 3e4a4f5f
/encoder/layer.1/intermediate/intermediate_act_fn/Erf_output_0: 3c010204
/encoder/layer.1/intermediate/intermediate_act_fn/Constant_1_output_0_output: 3c010204
ONNXTRT_Broadcast_151_output: 3c010204
/encoder/layer.1/intermediate/intermediate_act_fn/Add_output_0: 3c810204
/encoder/layer.1/intermediate/intermediate_act_fn/Mul_output_0: 3deb5ee7
/encoder/layer.1/intermediate/intermediate_act_fn/Constant_2_output_0_output: 3b810204
ONNXTRT_Broadcast_153_output: 3b810204
/encoder/layer.1/intermediate/intermediate_act_fn/Mul_1_output_0: 3d6b5ee7
onnx::MatMul_1378_output: 3cc626ba
ONNXTRT_Broadcast_155_output: 3cc626ba
/encoder/layer.1/output/dense/MatMul_output_0: 3ea8a60e
encoder.layer.1.output.dense.bias_output: 3bfbbd92
ONNXTRT_Broadcast_157_output: 3bfbbd92
/encoder/layer.1/output/dense/Add_output_0: 3eaa4855
/encoder/layer.1/output/Add_output_0: 3eca4430
/encoder/layer.11/output/dense/Add_output_0: 3dba5d21
ONNXTRT_Broadcast_667_output: 3af34b2a
/encoder/layer.1/output/LayerNorm/LayerNormalization_output_0: 3d89a38e
/encoder/layer.9/intermediate/intermediate_act_fn/Constant_output_0_output: 3c3671d7
/encoder/layer.7/output/Add_output_0: 40bdafeb
/encoder/layer.8/attention/attn/q/Add_output_0: 3d66d6a7
/encoder/layer.9/intermediate/intermediate_act_fn/Erf_output_0: 3c010204
onnx::MatMul_1379_output: 3be32087
ONNXTRT_Broadcast_165_output: 3be32087
/encoder/layer.2/attention/attn/q/MatMul_output_0: 3d117872
encoder.layer.2.attention.attn.q.bias_output: 3c272172
ONNXTRT_Broadcast_167_output: 3c272172
/encoder/layer.2/attention/attn/q/Add_output_0: 3d23f7f2
ONNXTRT_Broadcast_553_output: 3ca9823b
ONNXTRT_Broadcast_559_output: 3c010204
ONNXTRT_Broadcast_555_output: 3b89031c
ONNXTRT_Broadcast_478_output: 3d0346a1
ONNXTRT_Broadcast_451_output: 3d166fe2
/encoder/layer.9/intermediate/dense/MatMul_output_0: 3ee442a6
/encoder/layer.10/output/LayerNorm/LayerNormalization_output_0: 3d252e27
/encoder/layer.9/intermediate/intermediate_act_fn/Add_output_0: 3c810204
onnx::MatMul_1486_output: 3b1b3eae
/encoder/layer.8/attention/attn/Reshape_2_output_0: 3caf6d12
encoder.layer.8.attention.attn.o.bias_output: 3b05d0cf
encoder.layer.9.intermediate.dense.bias_output: 3b89031c
encoder.layer.9.attention.attn.o.bias_output: 3b0d0dcf
ONNXTRT_Broadcast_443_output: 3b09591b
ONNXTRT_Broadcast_502_output: 3c5d6296
/encoder/layer.8/attention/attn/Transpose_output_0: 3d66d6a7
/encoder/layer.9/intermediate/intermediate_act_fn/Mul_output_0: 3f642051
/encoder/layer.2/attention/attn/Reshape_output_0: 3d23f7f2
/encoder/layer.2/attention/attn/Transpose_output_0: 3d23f7f2
onnx::MatMul_1389_output: 3c08fa75
ONNXTRT_Broadcast_170_output: 3c08fa75
/encoder/layer.2/attention/attn/k/MatMul_output_0: 3d845c51
encoder.layer.2.attention.attn.k.bias_output: 38c98094
ONNXTRT_Broadcast_172_output: 38c98094
/encoder/layer.2/attention/attn/k/Add_output_0: 3d843e94
/encoder/layer.2/attention/attn/Reshape_1_output_0: 3d843e94
onnx::MatMul_1390_output: 3b6d860f
ONNXTRT_Broadcast_175_output: 3b6d860f
/encoder/layer.2/attention/attn/v/MatMul_output_0: 3ca24baf
encoder.layer.2.attention.attn.v.bias_output: 3b658070
ONNXTRT_Broadcast_177_output: 3b658070
/encoder/layer.2/attention/attn/v/Add_output_0: 3ca565ee
/encoder/layer.2/attention/attn/Reshape_2_output_0: 3ca565ee
/encoder/layer.2/attention/attn/Transpose_1_output_0: 3ca565ee
/encoder/layer.2/attention/attn/Transpose_2_output_0: 3d843e94
/encoder/layer.2/attention/attn/MatMul_output_0: 3f49dcd1
/encoder/layer.2/attention/attn/Constant_10_output_0_output: 3d810204
ONNXTRT_Broadcast_180_output: 3d810204
/encoder/layer.2/attention/attn/Div_output_0: 3dc9dcd1
/encoder/layer.2/attention/attn/Add_output_0: 3debea32
/encoder/layer.2/attention/attn/Add_1_output_0: 3debea32
/encoder/layer.2/attention/attn/Softmax_output: 3c00e439
/encoder/layer.2/attention/attn/Softmax_output_0: 3c00e439
ONNXTRT_Broadcast_561_output: 3b810204
onnx::MatMul_1506_output: 3d73d0c8
/encoder/layer.2/attention/attn/MatMul_1_output_0: 3c48f881
/encoder/layer.2/attention/attn/Transpose_3_output_0: 3c48f881
/encoder/layer.7/intermediate/intermediate_act_fn/Constant_output_0_output: 3c3671d7
/encoder/layer.11/attention/LayerNorm/LayerNormalization_output_0: 3ced5ab2
ONNXTRT_Broadcast_563_output: 3d73d0c8
/encoder/layer.7/intermediate/intermediate_act_fn/Div_output_0: 3eda0ea8
encoder.layer.9.output.dense.bias_output: 3b6cf8ef
/encoder/layer.9/output/dense/Add_output_0: 40f7e96d
encoder.layer.8.intermediate.dense.bias_output: 3ba5a710
ONNXTRT_Broadcast_647_output: 3b497216
/encoder/layer.8/intermediate/intermediate_act_fn/Mul_output_0: 3f946d5f
/encoder/layer.9/output/dense/MatMul_output_0: 40f7f2a2
/encoder/layer.11/attention/attn/q/Add_output_0: 3d2a6c3f
/encoder/layer.8/attention/attn/Transpose_1_output_0: 3caf6d12
ONNXTRT_Broadcast_430_output: 3b2e2145
/encoder/layer.2/attention/attn/Reshape_3_output_0: 3c48f881
onnx::MatMul_1392_output: 3bdca653
ONNXTRT_Broadcast_186_output: 3bdca653
/encoder/layer.2/attention/attn/o/MatMul_output_0: 3c0a4d02
encoder.layer.2.attention.attn.o.bias_output: 3aee2d95
ONNXTRT_Broadcast_188_output: 3aee2d95
/encoder/layer.2/attention/attn/o/Add_output_0: 3c116f4d
/encoder/layer.2/attention/Add_output_0: 3d8c30c3
encoder.layer.11.output.dense.bias_output: 3af34b2a
/encoder/layer.11/output/dense/MatMul_output_0: 3db7d413
/encoder/layer.2/attention/LayerNorm/LayerNormalization_output_0: 3ea8b444
onnx::MatMul_1393_output: 3bd69514
ONNXTRT_Broadcast_196_output: 3bd69514
/encoder/layer.2/intermediate/dense/MatMul_output_0: 3e78ce6d
encoder.layer.2.intermediate.dense.bias_output: 3b80053b
ONNXTRT_Broadcast_198_output: 3b80053b
/encoder/layer.2/intermediate/dense/Add_output_0: 3e778d3c
/encoder/layer.2/intermediate/intermediate_act_fn/Constant_output_0_output: 3c3671d7
ONNXTRT_Broadcast_200_output: 3c3671d7
/encoder/layer.2/intermediate/intermediate_act_fn/Div_output_0: 3e2f0ba5
/encoder/layer.2/intermediate/intermediate_act_fn/Erf_output_0: 3c010204
/encoder/layer.2/intermediate/intermediate_act_fn/Constant_1_output_0_output: 3c010204
ONNXTRT_Broadcast_202_output: 3c010204
/encoder/layer.2/intermediate/intermediate_act_fn/Add_output_0: 3c810204
/encoder/layer.2/intermediate/intermediate_act_fn/Mul_output_0: 3dca74bf
/encoder/layer.2/intermediate/intermediate_act_fn/Constant_2_output_0_output: 3b810204
ONNXTRT_Broadcast_204_output: 3b810204
/encoder/layer.2/intermediate/intermediate_act_fn/Mul_1_output_0: 3d4a74bf
onnx::MatMul_1394_output: 3ca2b65d
ONNXTRT_Broadcast_206_output: 3ca2b65d
/encoder/layer.2/output/dense/MatMul_output_0: 3dcd4b50
encoder.layer.2.output.dense.bias_output: 3b3c9a26
ONNXTRT_Broadcast_208_output: 3b3c9a26
/encoder/layer.2/output/dense/Add_output_0: 3dca01e8
/encoder/layer.2/output/Add_output_0: 3ea9b460
ONNXTRT_Broadcast_665_output: 3b888bc2
onnx::MatMul_1538_output: 3b888bc2
/encoder/layer.2/output/LayerNorm/LayerNormalization_output_0: 3d83f1dd
ONNXTRT_Broadcast_432_output: 3adc5903
/encoder/layer.7/attention/attn/Softmax_output_0: 3c00dc3d
onnx::MatMul_1485_output: 3c17ec95
/encoder/layer.9/intermediate/intermediate_act_fn/Constant_2_output_0_output: 3b810204
onnx::MatMul_1395_output: 3bc528b7
ONNXTRT_Broadcast_216_output: 3bc528b7
/encoder/layer.3/attention/attn/q/MatMul_output_0: 3d3aa376
encoder.layer.3.attention.attn.q.bias_output: 3c289ac9
ONNXTRT_Broadcast_218_output: 3c289ac9
/encoder/layer.3/attention/attn/q/Add_output_0: 3d4a8981
onnx::MatMul_1488_output: 3b2f0694
/encoder/layer.9/attention/attn/Transpose_1_output_0: 3c92f34c
/encoder/layer.9/output/LayerNorm/LayerNormalization_output_0: 3d558681
ONNXTRT_Broadcast_610_output: 3c010204
onnx::MatMul_1507_output: 3bbfc5af
/encoder/layer.10/attention/attn/q/Add_output_0: 3d346137
ONNXTRT_Broadcast_573_output: 3bbfc5af
encoder.layer.10.attention.attn.q.bias_output: 3c3c70bb
ONNXTRT_Broadcast_575_output: 3c3c70bb
/encoder/layer.11/attention/attn/v/MatMul_output_0: 3caab69d
/encoder/layer.8/attention/attn/Add_1_output_0: 3dee4d00
/encoder/layer.7/attention/attn/Add_1_output_0: 3e1f9f00
onnx::MatMul_1534_output: 3b092098
ONNXTRT_Broadcast_634_output: 3b092098
/encoder/layer.7/attention/attn/Reshape_1_output_0: 3d73685a
ONNXTRT_Broadcast_636_output: 3ab0140a
/encoder/layer.3/attention/attn/Reshape_output_0: 3d4a8981
/encoder/layer.3/attention/attn/Transpose_output_0: 3d4a8981
onnx::MatMul_1405_output: 3c01ac29
ONNXTRT_Broadcast_221_output: 3c01ac29
/encoder/layer.3/attention/attn/k/MatMul_output_0: 3d91f01c
encoder.layer.3.attention.attn.k.bias_output: 398fe75f
ONNXTRT_Broadcast_223_output: 398fe75f
/encoder/layer.3/attention/attn/k/Add_output_0: 3d91e376
/encoder/layer.3/attention/attn/Reshape_1_output_0: 3d91e376
onnx::MatMul_1406_output: 3b6af0ef
ONNXTRT_Broadcast_226_output: 3b6af0ef
/encoder/layer.3/attention/attn/v/MatMul_output_0: 3c9c5873
encoder.layer.3.attention.attn.v.bias_output: 3ab0ce25
ONNXTRT_Broadcast_228_output: 3ab0ce25
/encoder/layer.3/attention/attn/v/Add_output_0: 3c9eb9f4
/encoder/layer.3/attention/attn/Reshape_2_output_0: 3c9eb9f4
/encoder/layer.3/attention/attn/Transpose_1_output_0: 3c9eb9f4
/encoder/layer.3/attention/attn/Transpose_2_output_0: 3d91e376
/encoder/layer.3/attention/attn/MatMul_output_0: 3f8ec77f
/encoder/layer.3/attention/attn/Constant_10_output_0_output: 3d810204
ONNXTRT_Broadcast_231_output: 3d810204
/encoder/layer.3/attention/attn/Div_output_0: 3e0ec77f
/encoder/layer.3/attention/attn/Add_output_0: 3e1041db
/encoder/layer.3/attention/attn/Add_1_output_0: 3e1041db
/encoder/layer.3/attention/attn/Softmax_output: 3c00dc73
/encoder/layer.3/attention/attn/Softmax_output_0: 3c00dc73
/encoder/layer.8/attention/attn/MatMul_output_0: 3f5328d0
/encoder/layer.8/intermediate/intermediate_act_fn/Erf_output_0: 3c010204
/encoder/layer.3/attention/attn/MatMul_1_output_0: 3c2985c1
/encoder/layer.3/attention/attn/Transpose_3_output_0: 3c2985c1
/encoder/layer.9/intermediate/dense/Add_output_0: 3ee42051
/encoder/layer.7/attention/attn/Constant_10_output_0_output: 3d810204
/encoder/layer.10/attention/attn/k/Add_output_0: 3da91829
/encoder/layer.11/attention/attn/v/Add_output_0: 3caadc1c
/encoder/layer.7/attention/attn/Div_output_0: 3dcbcba9
/encoder/layer.8/attention/attn/Constant_10_output_0_output: 3d810204
/encoder/layer.9/attention/attn/v/Add_output_0: 3c92f34c
encoder.layer.11.attention.attn.v.bias_output: 3ab0140a
encoder.layer.8.output.dense.bias_output: 3ba052b8
/encoder/layer.7/attention/attn/Reshape_2_output_0: 3c9a8ffd
/encoder/layer.11/attention/attn/Reshape_2_output_0: 3caadc1c
/encoder/layer.7/intermediate/intermediate_act_fn/Constant_1_output_0_output: 3c010204
/encoder/layer.10/attention/attn/Reshape_output_0: 3d346137
/encoder/layer.3/attention/attn/Reshape_3_output_0: 3c2985c1
onnx::MatMul_1408_output: 3b5c7e10
ONNXTRT_Broadcast_237_output: 3b5c7e10
/encoder/layer.3/attention/attn/o/MatMul_output_0: 3c095e14
encoder.layer.3.attention.attn.o.bias_output: 3aaa0ed8
ONNXTRT_Broadcast_239_output: 3aaa0ed8
/encoder/layer.3/attention/attn/o/Add_output_0: 3c0f4dde
/encoder/layer.3/attention/Add_output_0: 3d888974
/encoder/layer.11/intermediate/intermediate_act_fn/Mul_1_output_0: 3ce3e117
ONNXTRT_Broadcast_663_output: 3b810204
/encoder/layer.3/attention/LayerNorm/LayerNormalization_output_0: 3e8cd069
onnx::MatMul_1409_output: 3bfdddf9
ONNXTRT_Broadcast_247_output: 3bfdddf9
/encoder/layer.3/intermediate/dense/MatMul_output_0: 3dc3acdb
encoder.layer.3.intermediate.dense.bias_output: 3b87285a
ONNXTRT_Broadcast_249_output: 3b87285a
/encoder/layer.3/intermediate/dense/Add_output_0: 3dcb125b
/encoder/layer.3/intermediate/intermediate_act_fn/Constant_output_0_output: 3c3671d7
ONNXTRT_Broadcast_251_output: 3c3671d7
/encoder/layer.3/intermediate/intermediate_act_fn/Div_output_0: 3d8f97e8
/encoder/layer.3/intermediate/intermediate_act_fn/Erf_output_0: 3c010204
/encoder/layer.3/intermediate/intermediate_act_fn/Constant_1_output_0_output: 3c010204
ONNXTRT_Broadcast_253_output: 3c010204
/encoder/layer.3/intermediate/intermediate_act_fn/Add_output_0: 3c810204
/encoder/layer.3/intermediate/intermediate_act_fn/Mul_output_0: 3e2240cd
/encoder/layer.3/intermediate/intermediate_act_fn/Constant_2_output_0_output: 3b810204
ONNXTRT_Broadcast_255_output: 3b810204
/encoder/layer.3/intermediate/intermediate_act_fn/Mul_1_output_0: 3da240cd
onnx::MatMul_1410_output: 3cd0613b
ONNXTRT_Broadcast_257_output: 3cd0613b
/encoder/layer.3/output/dense/MatMul_output_0: 3f2e62b1
encoder.layer.3.output.dense.bias_output: 3b682242
ONNXTRT_Broadcast_259_output: 3b682242
/encoder/layer.3/output/dense/Add_output_0: 3f2e8d33
/encoder/layer.3/output/Add_output_0: 3f356280
/encoder/layer.11/intermediate/intermediate_act_fn/Constant_2_output_0_output: 3b810204
/encoder/layer.11/intermediate/intermediate_act_fn/Mul_output_0: 3d63e117
/encoder/layer.3/output/LayerNorm/LayerNormalization_output_0: 3d3ff45a
ONNXTRT_Broadcast_580_output: 3d2db36f
/encoder/layer.7/attention/attn/Transpose_2_output_0: 3d73685a
/encoder/layer.10/attention/attn/Reshape_1_output_0: 3da91829
onnx::MatMul_1411_output: 3bc47e57
ONNXTRT_Broadcast_267_output: 3bc47e57
/encoder/layer.4/attention/attn/q/MatMul_output_0: 3d34dc1e
encoder.layer.4.attention.attn.q.bias_output: 3c167728
ONNXTRT_Broadcast_269_output: 3c167728
/encoder/layer.4/attention/attn/q/Add_output_0: 3d47fd9f
onnx::MatMul_1517_output: 3bd328ba
/encoder/layer.8/attention/attn/Transpose_2_output_0: 3d7f165d
encoder.layer.10.attention.attn.k.bias_output: 3d2db36f
/encoder/layer.7/attention/attn/o/Add_output_0: 3c412439
/encoder/layer.8/intermediate/dense/MatMul_output_0: 3f13bf6e
ONNXTRT_Broadcast_476_output: 3c17ec95
ONNXTRT_Broadcast_578_output: 3bd328ba
/encoder/layer.7/attention/attn/Transpose_1_output_0: 3c9a8ffd
onnx::MatMul_1518_output: 3b185979
/encoder/layer.7/attention/attn/o/MatMul_output_0: 3c3bc047
/encoder/layer.8/intermediate/intermediate_act_fn/Div_output_0: 3ed1e866
/encoder/layer.10/attention/attn/v/MatMul_output_0: 3ca243e7
/encoder/layer.10/attention/attn/k/MatMul_output_0: 3d556281
/encoder/layer.7/attention/attn/Reshape_3_output_0: 3c217862
encoder.layer.10.attention.attn.v.bias_output: 3b4b9781
onnx::MatMul_1473_output: 3d166fe2
ONNXTRT_Broadcast_512_output: 3d6d75e5
/encoder/layer.11/attention/attn/Add_1_output_0: 3e1ff418
/encoder/layer.4/attention/attn/Reshape_output_0: 3d47fd9f
/encoder/layer.4/attention/attn/Transpose_output_0: 3d47fd9f
onnx::MatMul_1421_output: 3bf93e43
ONNXTRT_Broadcast_272_output: 3bf93e43
/encoder/layer.4/attention/attn/k/MatMul_output_0: 3d53f565
encoder.layer.4.attention.attn.k.bias_output: 39fd63a1
ONNXTRT_Broadcast_274_output: 39fd63a1
/encoder/layer.4/attention/attn/k/Add_output_0: 3d5422c5
/encoder/layer.4/attention/attn/Reshape_1_output_0: 3d5422c5
onnx::MatMul_1422_output: 3b792e0e
ONNXTRT_Broadcast_277_output: 3b792e0e
/encoder/layer.4/attention/attn/v/MatMul_output_0: 3cd336c2
encoder.layer.4.attention.attn.v.bias_output: 3adbf74a
ONNXTRT_Broadcast_279_output: 3adbf74a
/encoder/layer.4/attention/attn/v/Add_output_0: 3ce0a628
/encoder/layer.4/attention/attn/Reshape_2_output_0: 3ce0a628
/encoder/layer.4/attention/attn/Transpose_1_output_0: 3ce0a628
/encoder/layer.4/attention/attn/Transpose_2_output_0: 3d5422c5
/encoder/layer.4/attention/attn/MatMul_output_0: 3f66ec89
/encoder/layer.4/attention/attn/Constant_10_output_0_output: 3d810204
ONNXTRT_Broadcast_282_output: 3d810204
/encoder/layer.4/attention/attn/Div_output_0: 3de6ec89
/encoder/layer.4/attention/attn/Add_output_0: 3e0287f7
/encoder/layer.4/attention/attn/Add_1_output_0: 3e0287f7
/encoder/layer.4/attention/attn/Softmax_output: 3c00d992
/encoder/layer.4/attention/attn/Softmax_output_0: 3c00d992
ONNXTRT_Broadcast_585_output: 3b4b9781
/encoder/layer.10/output/dense/Add_output_0: 4061599f
/encoder/layer.4/attention/attn/MatMul_1_output_0: 3c8062c4
/encoder/layer.4/attention/attn/Transpose_3_output_0: 3c8062c4
/encoder/layer.10/attention/attn/Transpose_1_output_0: 3ca3ac6e
ONNXTRT_Broadcast_626_output: 3c0efbd6
/encoder/layer.10/attention/Add_output_0: 3d65ab3a
encoder.layer.11.attention.attn.k.bias_output: 3caa114c
/encoder/layer.10/attention/attn/Constant_10_output_0_output: 3d810204
/encoder/layer.8/intermediate/intermediate_act_fn/Constant_1_output_0_output: 3c010204
ONNXTRT_Broadcast_588_output: 3d810204
ONNXTRT_Broadcast_494_output: 3b05d0cf
/encoder/layer.10/attention/attn/MatMul_output_0: 3fbd850c
/encoder/layer.11/attention/attn/q/MatMul_output_0: 3d0e759f
/encoder/layer.10/attention/attn/Div_output_0: 3e3d850c
/encoder/layer.10/attention/attn/v/Add_output_0: 3ca3ac6e
/encoder/layer.10/attention/attn/Add_output_0: 3e3cd5fe
/encoder/layer.4/attention/attn/Reshape_3_output_0: 3c8062c4
onnx::MatMul_1424_output: 3b8876f2
ONNXTRT_Broadcast_288_output: 3b8876f2
/encoder/layer.4/attention/attn/o/MatMul_output_0: 3c33011b
encoder.layer.4.attention.attn.o.bias_output: 3b0cfb81
ONNXTRT_Broadcast_290_output: 3b0cfb81
/encoder/layer.4/attention/attn/o/Add_output_0: 3c1e4482
/encoder/layer.4/attention/Add_output_0: 3d3fcab0
/encoder/layer.11/intermediate/intermediate_act_fn/Add_output_0: 3c80fb3e
ONNXTRT_Broadcast_661_output: 3c010204
/encoder/layer.4/attention/LayerNorm/LayerNormalization_output_0: 3eabc34a
onnx::MatMul_1425_output: 3c0a58a0
ONNXTRT_Broadcast_298_output: 3c0a58a0
/encoder/layer.4/intermediate/dense/MatMul_output_0: 3e5c7d49
encoder.layer.4.intermediate.dense.bias_output: 3b8c4071
ONNXTRT_Broadcast_300_output: 3b8c4071
/encoder/layer.4/intermediate/dense/Add_output_0: 3e595a86
/encoder/layer.4/intermediate/intermediate_act_fn/Constant_output_0_output: 3c3671d7
ONNXTRT_Broadcast_302_output: 3c3671d7
/encoder/layer.4/intermediate/intermediate_act_fn/Div_output_0: 3e19b134
/encoder/layer.4/intermediate/intermediate_act_fn/Erf_output_0: 3c010204
/encoder/layer.4/intermediate/intermediate_act_fn/Constant_1_output_0_output: 3c010204
ONNXTRT_Broadcast_304_output: 3c010204
/encoder/layer.4/intermediate/intermediate_act_fn/Add_output_0: 3c810204
/encoder/layer.4/intermediate/intermediate_act_fn/Mul_output_0: 3e13ae0e
/encoder/layer.4/intermediate/intermediate_act_fn/Constant_2_output_0_output: 3b810204
ONNXTRT_Broadcast_306_output: 3b810204
/encoder/layer.4/intermediate/intermediate_act_fn/Mul_1_output_0: 3d93ae0e
onnx::MatMul_1426_output: 3d7b7875
ONNXTRT_Broadcast_308_output: 3d7b7875
/encoder/layer.4/output/dense/MatMul_output_0: 3fa4e7e3
encoder.layer.4.output.dense.bias_output: 3bf0a688
ONNXTRT_Broadcast_310_output: 3bf0a688
/encoder/layer.4/output/dense/Add_output_0: 3fa4eb33
/encoder/layer.4/output/Add_output_0: 3fc9337d
/encoder/layer.11/intermediate/intermediate_act_fn/Constant_1_output_0_output: 3c010204
/encoder/layer.11/intermediate/intermediate_act_fn/Erf_output_0: 3c010204
/encoder/layer.4/output/LayerNorm/LayerNormalization_output_0: 3d0a4d97
/encoder/layer.8/attention/LayerNorm/LayerNormalization_output_0: 3e9db128
/encoder/layer.11/attention/attn/Transpose_2_output_0: 3d9527aa
/encoder/layer.10/attention/attn/Transpose_3_output_0: 3c24a435
/encoder/layer.11/attention/attn/Transpose_1_output_0: 3caadc1c
onnx::MatMul_1427_output: 3bcdbe2a
ONNXTRT_Broadcast_318_output: 3bcdbe2a
/encoder/layer.5/attention/attn/q/MatMul_output_0: 3d2ae531
encoder.layer.5.attention.attn.q.bias_output: 3c1fca64
ONNXTRT_Broadcast_320_output: 3c1fca64
/encoder/layer.5/attention/attn/q/Add_output_0: 3d36734b
/encoder/layer.10/attention/attn/Softmax_output: 3c00f994
ONNXTRT_Broadcast_435_output: 3d810204
/encoder/layer.8/attention/attn/MatMul_1_output_0: 3c10f076
/encoder/layer.10/attention/attn/MatMul_1_output_0: 3c24a435
onnx::MatMul_1489_output: 3c5d6296
/encoder/layer.7/attention/attn/MatMul_output_0: 3f4bcba9
/encoder/layer.10/attention/attn/Softmax_output_0: 3c00f994
/encoder/layer.8/output/dense/MatMul_output_0: 40f9320e
/encoder/layer.11/attention/attn/MatMul_output_0: 3f8aa203
/encoder/layer.11/attention/attn/Div_output_0: 3e0aa203
/encoder/layer.9/intermediate/intermediate_act_fn/Mul_1_output_0: 3ee42051
ONNXTRT_Broadcast_639_output: 3d810204
/encoder/layer.7/output/LayerNorm/LayerNormalization_output_0: 3cbbf113
/encoder/layer.11/attention/attn/Reshape_1_output_0: 3d9527aa
/encoder/layer.9/intermediate/intermediate_act_fn/Div_output_0: 3ea14f43
/encoder/layer.11/attention/attn/Constant_10_output_0_output: 3d810204
/encoder/layer.5/attention/attn/Reshape_output_0: 3d36734b
/encoder/layer.5/attention/attn/Transpose_output_0: 3d36734b
onnx::MatMul_1437_output: 3bfdd1b6
ONNXTRT_Broadcast_323_output: 3bfdd1b6
/encoder/layer.5/attention/attn/k/MatMul_output_0: 3d4be537
encoder.layer.5.attention.attn.k.bias_output: 3b1f29bb
ONNXTRT_Broadcast_325_output: 3b1f29bb
/encoder/layer.5/attention/attn/k/Add_output_0: 3d464737
/encoder/layer.5/attention/attn/Reshape_1_output_0: 3d464737
onnx::MatMul_1438_output: 3b39727a
ONNXTRT_Broadcast_328_output: 3b39727a
/encoder/layer.5/attention/attn/v/MatMul_output_0: 3cd9579f
encoder.layer.5.attention.attn.v.bias_output: 3a95dc67
ONNXTRT_Broadcast_330_output: 3a95dc67
/encoder/layer.5/attention/attn/v/Add_output_0: 3cd9a9df
/encoder/layer.5/attention/attn/Reshape_2_output_0: 3cd9a9df
/encoder/layer.5/attention/attn/Transpose_1_output_0: 3cd9a9df
/encoder/layer.5/attention/attn/Transpose_2_output_0: 3d464737
/encoder/layer.5/attention/attn/MatMul_output_0: 3f15d82a
/encoder/layer.5/attention/attn/Constant_10_output_0_output: 3d810204
ONNXTRT_Broadcast_333_output: 3d810204
/encoder/layer.5/attention/attn/Div_output_0: 3d95d82a
/encoder/layer.5/attention/attn/Add_output_0: 3e226c97
/encoder/layer.5/attention/attn/Add_1_output_0: 3e226c97
/encoder/layer.5/attention/attn/Softmax_output: 3c00dd2a
/encoder/layer.5/attention/attn/Softmax_output_0: 3c00dd2a
/encoder/layer.9/attention/attn/k/Add_output_0: 3db0edb9
ONNXTRT_Broadcast_459_output: 3b810204
/encoder/layer.5/attention/attn/MatMul_1_output_0: 3c06b82e
/encoder/layer.5/attention/attn/Transpose_3_output_0: 3c06b82e
ONNXTRT_Broadcast_557_output: 3c3671d7
/encoder/layer.7/attention/Add_output_0: 3cd124fe
/encoder/layer.9/intermediate/intermediate_act_fn/Constant_1_output_0_output: 3c010204
/encoder/layer.11/attention/attn/Add_output_0: 3e1ff418
onnx::MatMul_1520_output: 3b1d9e37
/encoder/layer.8/attention/attn/q/MatMul_output_0: 3d542cf6
/encoder/layer.10/attention/attn/o/MatMul_output_0: 3c6258bf
ONNXTRT_Broadcast_471_output: 3bc60719
ONNXTRT_Broadcast_527_output: 3c0336f7
/encoder/layer.8/attention/attn/Transpose_3_output_0: 3c10f076
ONNXTRT_Broadcast_596_output: 3b60dbf2
/encoder/layer.7/intermediate/intermediate_act_fn/Erf_output_0: 3c010204
/encoder/layer.8/intermediate/intermediate_act_fn/Constant_output_0_output: 3c3671d7
/encoder/layer.5/attention/attn/Reshape_3_output_0: 3c06b82e
onnx::MatMul_1440_output: 3bb9dcdb
ONNXTRT_Broadcast_339_output: 3bb9dcdb
/encoder/layer.5/attention/attn/o/MatMul_output_0: 3c4a2c87
encoder.layer.5.attention.attn.o.bias_output: 3a9a5137
ONNXTRT_Broadcast_341_output: 3a9a5137
/encoder/layer.5/attention/attn/o/Add_output_0: 3c4981aa
/encoder/layer.5/attention/Add_output_0: 3d0a544c
/encoder/layer.11/intermediate/intermediate_act_fn/Div_output_0: 3cfd7b7b
ONNXTRT_Broadcast_659_output: 3c3671d7
/encoder/layer.5/attention/LayerNorm/LayerNormalization_output_0: 3ed19c8f
onnx::MatMul_1441_output: 3c07db46
ONNXTRT_Broadcast_349_output: 3c07db46
/encoder/layer.5/intermediate/dense/MatMul_output_0: 3e97502d
encoder.layer.5.intermediate.dense.bias_output: 3b8393b9
ONNXTRT_Broadcast_351_output: 3b8393b9
/encoder/layer.5/intermediate/dense/Add_output_0: 3e976535
/encoder/layer.5/intermediate/intermediate_act_fn/Constant_output_0_output: 3c3671d7
ONNXTRT_Broadcast_353_output: 3c3671d7
/encoder/layer.5/intermediate/intermediate_act_fn/Div_output_0: 3e561af9
/encoder/layer.5/intermediate/intermediate_act_fn/Erf_output_0: 3c010204
/encoder/layer.5/intermediate/intermediate_act_fn/Constant_1_output_0_output: 3c010204
ONNXTRT_Broadcast_355_output: 3c010204
/encoder/layer.5/intermediate/intermediate_act_fn/Add_output_0: 3c810204
/encoder/layer.5/intermediate/intermediate_act_fn/Mul_output_0: 3e345e95
/encoder/layer.5/intermediate/intermediate_act_fn/Constant_2_output_0_output: 3b810204
ONNXTRT_Broadcast_357_output: 3b810204
/encoder/layer.5/intermediate/intermediate_act_fn/Mul_1_output_0: 3db45e95
onnx::MatMul_1442_output: 3dfacd3e
ONNXTRT_Broadcast_359_output: 3dfacd3e
/encoder/layer.5/output/dense/MatMul_output_0: 3fc4ad09
encoder.layer.5.output.dense.bias_output: 3bc7c505
ONNXTRT_Broadcast_361_output: 3bc7c505
/encoder/layer.5/output/dense/Add_output_0: 3fc49854
/encoder/layer.5/output/Add_output_0: 3ff8ff77
/encoder/layer.11/intermediate/intermediate_act_fn/Constant_output_0_output: 3c3671d7
/encoder/layer.11/intermediate/dense/Add_output_0: 3d333d34
/encoder/layer.5/output/LayerNorm/LayerNormalization_output_0: 3d12eb38
/encoder/layer.11/attention/attn/k/Add_output_0: 3d9527aa
/encoder/layer.10/attention/attn/q/MatMul_output_0: 3d182bf4
/encoder/layer.8/attention/attn/v/MatMul_output_0: 3cb040bb
onnx::MatMul_1443_output: 3bd31ae4
ONNXTRT_Broadcast_369_output: 3bd31ae4
/encoder/layer.6/attention/attn/q/MatMul_output_0: 3d3dc91d
encoder.layer.6.attention.attn.q.bias_output: 3c11e3d0
ONNXTRT_Broadcast_371_output: 3c11e3d0
/encoder/layer.6/attention/attn/q/Add_output_0: 3d60a549
/encoder/layer.10/attention/attn/o/Add_output_0: 3c34672e
/encoder/layer.9/attention/attn/Reshape_3_output_0: 3c094c6e
/encoder/layer.11/attention/attn/o/MatMul_output_0: 3c3d11af
ONNXTRT_Broadcast_604_output: 3bf311fc
/encoder/layer.10/attention/LayerNorm/LayerNormalization_output_0: 3eec894f
onnx::MatMul_1521_output: 3bf311fc
/encoder/layer.10/intermediate/dense/MatMul_output_0: 3ee9b37b
ONNXTRT_Broadcast_463_output: 3b5aaef3
/encoder/layer.10/intermediate/dense/Add_output_0: 3eea1174
encoder.layer.10.intermediate.dense.bias_output: 3b428c7e
ONNXTRT_Broadcast_606_output: 3b428c7e
/encoder/layer.10/intermediate/intermediate_act_fn/Constant_output_0_output: 3c3671d7
/encoder/layer.6/attention/attn/Reshape_output_0: 3d60a549
/encoder/layer.6/attention/attn/Transpose_output_0: 3d60a549
onnx::MatMul_1453_output: 3bf6de19
ONNXTRT_Broadcast_374_output: 3bf6de19
/encoder/layer.6/attention/attn/k/MatMul_output_0: 3d500833
encoder.layer.6.attention.attn.k.bias_output: 3c1c2009
ONNXTRT_Broadcast_376_output: 3c1c2009
/encoder/layer.6/attention/attn/k/Add_output_0: 3d42610c
/encoder/layer.6/attention/attn/Reshape_1_output_0: 3d42610c
onnx::MatMul_1454_output: 3b42e049
ONNXTRT_Broadcast_379_output: 3b42e049
/encoder/layer.6/attention/attn/v/MatMul_output_0: 3ca013c1
encoder.layer.6.attention.attn.v.bias_output: 3aa74996
ONNXTRT_Broadcast_381_output: 3aa74996
/encoder/layer.6/attention/attn/v/Add_output_0: 3ca4724f
/encoder/layer.6/attention/attn/Reshape_2_output_0: 3ca4724f
/encoder/layer.6/attention/attn/Transpose_1_output_0: 3ca4724f
/encoder/layer.6/attention/attn/Transpose_2_output_0: 3d42610c
/encoder/layer.6/attention/attn/MatMul_output_0: 3f5d823b
/encoder/layer.6/attention/attn/Constant_10_output_0_output: 3d810204
ONNXTRT_Broadcast_384_output: 3d810204
/encoder/layer.6/attention/attn/Div_output_0: 3ddd823b
/encoder/layer.6/attention/attn/Add_output_0: 3de963a7
/encoder/layer.6/attention/attn/Add_1_output_0: 3de963a7
/encoder/layer.6/attention/attn/Softmax_output: 3c00f758
/encoder/layer.6/attention/attn/Softmax_output_0: 3c00f758
/encoder/layer.10/attention/attn/Transpose_output_0: 3d346137
encoder.layer.7.attention.attn.k.bias_output: 3c9e0497
/encoder/layer.6/attention/attn/MatMul_1_output_0: 3c2c8591
/encoder/layer.6/attention/attn/Transpose_3_output_0: 3c2c8591
/encoder/layer.10/intermediate/intermediate_act_fn/Div_output_0: 3ea582de
/encoder/layer.10/attention/attn/Add_1_output_0: 3e3cd5fe
encoder.layer.7.output.dense.bias_output: 3b5aaef3
/encoder/layer.10/intermediate/intermediate_act_fn/Erf_output_0: 3c010204
/encoder/layer.10/intermediate/intermediate_act_fn/Constant_1_output_0_output: 3c010204
encoder.layer.7.attention.attn.v.bias_output: 3adc5903
/encoder/layer.7/attention/attn/Softmax_output: 3c00dc3d
ONNXTRT_Broadcast_483_output: 3a99e9d7
ONNXTRT_Broadcast_608_output: 3c3671d7
/encoder/layer.8/attention/attn/Reshape_1_output_0: 3d7f165d
/encoder/layer.7/intermediate/intermediate_act_fn/Mul_1_output_0: 3f1a3094
onnx::MatMul_1502_output: 3b08e989
/encoder/layer.7/intermediate/intermediate_act_fn/Mul_output_0: 3f9a3094
/encoder/layer.10/intermediate/intermediate_act_fn/Add_output_0: 3c810204
/encoder/layer.6/attention/attn/Reshape_3_output_0: 3c2c8591
onnx::MatMul_1456_output: 3b3260a1
ONNXTRT_Broadcast_390_output: 3b3260a1
/encoder/layer.6/attention/attn/o/MatMul_output_0: 3c27c7bf
encoder.layer.6.attention.attn.o.bias_output: 3b0008c7
ONNXTRT_Broadcast_392_output: 3b0008c7
/encoder/layer.6/attention/attn/o/Add_output_0: 3c28a25d
/encoder/layer.6/attention/Add_output_0: 3d11aa04
ONNXTRT_Broadcast_657_output: 3b117fa0
encoder.layer.11.intermediate.dense.bias_output: 3b117fa0
/encoder/layer.6/attention/LayerNorm/LayerNormalization_output_0: 3eb8fc68
onnx::MatMul_1457_output: 3c602fc7
ONNXTRT_Broadcast_400_output: 3c602fc7
/encoder/layer.6/intermediate/dense/MatMul_output_0: 3ef19bad
encoder.layer.6.intermediate.dense.bias_output: 3ba5047c
ONNXTRT_Broadcast_402_output: 3ba5047c
/encoder/layer.6/intermediate/dense/Add_output_0: 3ef28c0a
/encoder/layer.6/intermediate/intermediate_act_fn/Constant_output_0_output: 3c3671d7
ONNXTRT_Broadcast_404_output: 3c3671d7
/encoder/layer.6/intermediate/intermediate_act_fn/Div_output_0: 3eab81b4
/encoder/layer.6/intermediate/intermediate_act_fn/Erf_output_0: 3c010204
/encoder/layer.6/intermediate/intermediate_act_fn/Constant_1_output_0_output: 3c010204
ONNXTRT_Broadcast_406_output: 3c010204
/encoder/layer.6/intermediate/intermediate_act_fn/Add_output_0: 3c810204
/encoder/layer.6/intermediate/intermediate_act_fn/Mul_output_0: 3f728c0a
/encoder/layer.6/intermediate/intermediate_act_fn/Constant_2_output_0_output: 3b810204
ONNXTRT_Broadcast_408_output: 3b810204
/encoder/layer.6/intermediate/intermediate_act_fn/Mul_1_output_0: 3ef28c0a
onnx::MatMul_1458_output: 3dbfa851
ONNXTRT_Broadcast_410_output: 3dbfa851
/encoder/layer.6/output/dense/MatMul_output_0: 40b4c5a0
encoder.layer.6.output.dense.bias_output: 3b9ea6de
ONNXTRT_Broadcast_412_output: 3b9ea6de
/encoder/layer.6/output/dense/Add_output_0: 40b4be97
/encoder/layer.6/output/Add_output_0: 40c04e5e
/encoder/layer.11/intermediate/dense/MatMul_output_0: 3d2c4523
ONNXTRT_Broadcast_655_output: 3c049357
/encoder/layer.6/output/LayerNorm/LayerNormalization_output_0: 3cd1c130
/encoder/layer.11/attention/attn/Softmax_output_0: 3c009344
ONNXTRT_Broadcast_583_output: 3b185979
/encoder/layer.10/output/dense/MatMul_output_0: 40612fc3
encoder.layer.10.output.dense.bias_output: 3b277175
onnx::MatMul_1459_output: 3bd8667d
ONNXTRT_Broadcast_420_output: 3bd8667d
/encoder/layer.7/attention/attn/q/MatMul_output_0: 3d3f7594
encoder.layer.7.attention.attn.q.bias_output: 3c28289e
ONNXTRT_Broadcast_422_output: 3c28289e
/encoder/layer.7/attention/attn/q/Add_output_0: 3d609c24
ONNXTRT_Broadcast_457_output: 3c010204
ONNXTRT_Broadcast_616_output: 3b277175
ONNXTRT_Broadcast_612_output: 3b810204
onnx::MatMul_1522_output: 3cf27a88
ONNXTRT_Broadcast_614_output: 3cf27a88
encoder.layer.8.attention.attn.v.bias_output: 3a99e9d7
/encoder/layer.10/intermediate/intermediate_act_fn/Mul_output_0: 3f6a1174
/encoder/layer.10/output/Add_output_0: 40686c2c
onnx::MatMul_1536_output: 3b5bf6a3
/encoder/layer.11/attention/attn/Reshape_3_output_0: 3c1fea2f
/encoder/layer.10/intermediate/intermediate_act_fn/Constant_2_output_0_output: 3b810204
/encoder/layer.7/intermediate/dense/Add_output_0: 3f1a3094
encoder.layer.7.intermediate.dense.bias_output: 3bc6d5da
/encoder/layer.7/attention/attn/Reshape_output_0: 3d609c24
/encoder/layer.7/attention/attn/Transpose_output_0: 3d609c24
onnx::MatMul_1469_output: 3bf66fb7
ONNXTRT_Broadcast_425_output: 3bf66fb7
